#ifndef MODEL_DATA_H
        #define MODEL_DATA_H

        #include <cstdint>
        alignas(16) const unsigned char model_tflite[] = {
                0x1c, 0x00, 0x00, 0x00, 0x54, 0x46, 0x4c, 0x33, 0x14, 0x00, 0x20, 0x00,
    0x1c, 0x00, 0x18, 0x00, 0x14, 0x00, 0x10, 0x00, 0x0c, 0x00, 0x00, 0x00,
    0x08, 0x00, 0x04, 0x00, 0x14, 0x00, 0x00, 0x00, 0x1c, 0x00, 0x00, 0x00,
    0x88, 0x00, 0x00, 0x00, 0xe0, 0x00, 0x00, 0x00, 0x5c, 0x0e, 0x00, 0x00,
    0x6c, 0x0e, 0x00, 0x00, 0xa4, 0x19, 0x00, 0x00, 0x03, 0x00, 0x00, 0x00,
    0x01, 0x00, 0x00, 0x00, 0x04, 0x00, 0x00, 0x00, 0x56, 0xf1, 0xff, 0xff,
    0x0c, 0x00, 0x00, 0x00, 0x1c, 0x00, 0x00, 0x00, 0x3c, 0x00, 0x00, 0x00,
    0x0f, 0x00, 0x00, 0x00, 0x73, 0x65, 0x72, 0x76, 0x69, 0x6e, 0x67, 0x5f,
    0x64, 0x65, 0x66, 0x61, 0x75, 0x6c, 0x74, 0x00, 0x01, 0x00, 0x00, 0x00,
    0x04, 0x00, 0x00, 0x00, 0x94, 0xff, 0xff, 0xff, 0x0a, 0x00, 0x00, 0x00,
    0x04, 0x00, 0x00, 0x00, 0x08, 0x00, 0x00, 0x00, 0x6f, 0x75, 0x74, 0x70,
    0x75, 0x74, 0x5f, 0x30, 0x00, 0x00, 0x00, 0x00, 0x01, 0x00, 0x00, 0x00,
    0x04, 0x00, 0x00, 0x00, 0x2a, 0xf2, 0xff, 0xff, 0x04, 0x00, 0x00, 0x00,
    0x0b, 0x00, 0x00, 0x00, 0x69, 0x6e, 0x70, 0x75, 0x74, 0x5f, 0x6c, 0x61,
    0x79, 0x65, 0x72, 0x00, 0x02, 0x00, 0x00, 0x00, 0x34, 0x00, 0x00, 0x00,
    0x04, 0x00, 0x00, 0x00, 0xdc, 0xff, 0xff, 0xff, 0x0d, 0x00, 0x00, 0x00,
    0x04, 0x00, 0x00, 0x00, 0x13, 0x00, 0x00, 0x00, 0x43, 0x4f, 0x4e, 0x56,
    0x45, 0x52, 0x53, 0x49, 0x4f, 0x4e, 0x5f, 0x4d, 0x45, 0x54, 0x41, 0x44,
    0x41, 0x54, 0x41, 0x00, 0x08, 0x00, 0x0c, 0x00, 0x08, 0x00, 0x04, 0x00,
    0x08, 0x00, 0x00, 0x00, 0x0c, 0x00, 0x00, 0x00, 0x04, 0x00, 0x00, 0x00,
    0x13, 0x00, 0x00, 0x00, 0x6d, 0x69, 0x6e, 0x5f, 0x72, 0x75, 0x6e, 0x74,
    0x69, 0x6d, 0x65, 0x5f, 0x76, 0x65, 0x72, 0x73, 0x69, 0x6f, 0x6e, 0x00,
    0x0e, 0x00, 0x00, 0x00, 0x78, 0x0d, 0x00, 0x00, 0x70, 0x0d, 0x00, 0x00,
    0x5c, 0x0d, 0x00, 0x00, 0x34, 0x0d, 0x00, 0x00, 0xe4, 0x0c, 0x00, 0x00,
    0xd4, 0x0a, 0x00, 0x00, 0x44, 0x0a, 0x00, 0x00, 0xb4, 0x00, 0x00, 0x00,
    0xac, 0x00, 0x00, 0x00, 0xa4, 0x00, 0x00, 0x00, 0x9c, 0x00, 0x00, 0x00,
    0x94, 0x00, 0x00, 0x00, 0x74, 0x00, 0x00, 0x00, 0x04, 0x00, 0x00, 0x00,
    0xda, 0xf2, 0xff, 0xff, 0x04, 0x00, 0x00, 0x00, 0x60, 0x00, 0x00, 0x00,
    0x0c, 0x00, 0x00, 0x00, 0x08, 0x00, 0x0e, 0x00, 0x08, 0x00, 0x04, 0x00,
    0x08, 0x00, 0x00, 0x00, 0x10, 0x00, 0x00, 0x00, 0x28, 0x00, 0x00, 0x00,
    0x00, 0x00, 0x06, 0x00, 0x08, 0x00, 0x04, 0x00, 0x06, 0x00, 0x00, 0x00,
    0x04, 0x00, 0x00, 0x00, 0x01, 0x00, 0x00, 0x00, 0xeb, 0x03, 0x00, 0x00,
    0x0c, 0x00, 0x18, 0x00, 0x14, 0x00, 0x10, 0x00, 0x0c, 0x00, 0x04, 0x00,
    0x0c, 0x00, 0x00, 0x00, 0xa6, 0xec, 0x51, 0xef, 0x33, 0x0b, 0x12, 0x09,
    0x02, 0x00, 0x00, 0x00, 0x02, 0x00, 0x00, 0x00, 0x04, 0x00, 0x00, 0x00,
    0x06, 0x00, 0x00, 0x00, 0x32, 0x2e, 0x32, 0x30, 0x2e, 0x30, 0x00, 0x00,
    0x46, 0xf3, 0xff, 0xff, 0x04, 0x00, 0x00, 0x00, 0x10, 0x00, 0x00, 0x00,
    0x31, 0x2e, 0x31, 0x34, 0x2e, 0x30, 0x00, 0x00, 0x00, 0x00, 0x00, 0x00,
    0x00, 0x00, 0x00, 0x00, 0xa0, 0xf2, 0xff, 0xff, 0xa4, 0xf2, 0xff, 0xff,
    0xa8, 0xf2, 0xff, 0xff, 0xac, 0xf2, 0xff, 0xff, 0x72, 0xf3, 0xff, 0xff,
    0x04, 0x00, 0x00, 0x00, 0x80, 0x09, 0x00, 0x00, 0xbc, 0x71, 0x4b, 0x20,
    0x02, 0x08, 0xf1, 0xb5, 0x24, 0xe0, 0x2d, 0xc7, 0xc0, 0xf7, 0xa5, 0xd8,
    0x10, 0x6b, 0xf2, 0x13, 0xc6, 0xbc, 0xab, 0xf9, 0xd3, 0x32, 0xfe, 0x09,
    0xc7, 0xf4, 0xc0, 0xfe, 0x09, 0x6a, 0xfb, 0x01, 0xdc, 0x20, 0xca, 0xfd,
    0x1c, 0x1c, 0x00, 0xda, 0xd1, 0xe6, 0x20, 0xff, 0x0c, 0x1d, 0xef, 0xcb,
    0x16, 0x13, 0x08, 0x9c, 0xed, 0xd1, 0xf3, 0xf3, 0x41, 0xe8, 0x4a, 0xfc,
    0x7f, 0x25, 0xc4, 0xf6, 0x50, 0xab, 0xe3, 0xeb, 0xf3, 0x3e, 0x00, 0x00,
    0xda, 0xc1, 0xcb, 0x34, 0x27, 0x10, 0x4d, 0xce, 0x25, 0xdc, 0x1f, 0xd0,
    0xfc, 0x7b, 0x5f, 0x26, 0xd6, 0xdc, 0xb6, 0xf4, 0x7f, 0x0e, 0x2b, 0xe1,
    0xcc, 0xc1, 0x0e, 0x0d, 0x54, 0x1d, 0xb6, 0x03, 0xd7, 0xd5, 0xdc, 0x29,
    0x1f, 0xbe, 0xad, 0xf4, 0x44, 0x0a, 0xe7, 0x21, 0x1a, 0xe0, 0xc1, 0x02,
    0x10, 0x4f, 0x4c, 0x12, 0xed, 0xec, 0xfa, 0xde, 0x1f, 0xc8, 0xe7, 0x37,
    0xce, 0x04, 0xf0, 0xcc, 0xe4, 0x52, 0x2b, 0xe8, 0x02, 0x46, 0xc1, 0xf3,
    0xe9, 0xef, 0x00, 0x00, 0xc1, 0x3f, 0x28, 0x42, 0x4f, 0xfe, 0x7e, 0x6a,
    0x16, 0x3c, 0x0b, 0x0b, 0x4e, 0xd1, 0x34, 0x3d, 0x64, 0x44, 0x16, 0xa3,
    0xe3, 0x5a, 0x45, 0x24, 0xdc, 0x05, 0xb7, 0x24, 0x2e, 0x1e, 0xc3, 0xdf,
    0x09, 0x56, 0x20, 0xab, 0xa3, 0x04, 0xd0, 0xe2, 0xf5, 0x1c, 0xe8, 0xe0,
    0xc3, 0x5a, 0xf0, 0x37, 0xb9, 0xfa, 0x2b, 0xfd, 0xd9, 0xa2, 0x90, 0x4b,
    0x3f, 0x1d, 0xea, 0x1c, 0xe4, 0xf2, 0xeb, 0xfb, 0x94, 0x81, 0x4b, 0xbd,
    0x9e, 0x0a, 0xe9, 0xd2, 0x9b, 0x8f, 0x00, 0x00, 0x15, 0xdc, 0xf3, 0x18,
    0xde, 0x3f, 0x3b, 0xe3, 0xeb, 0xd1, 0x19, 0xf1, 0xe2, 0xff, 0xe3, 0x3b,
    0xe9, 0x22, 0xf6, 0xe3, 0xfc, 0xe3, 0x03, 0xcf, 0x35, 0xe0, 0xdc, 0xdc,
    0x0f, 0xef, 0x38, 0x1e, 0x2e, 0xfd, 0x1d, 0x04, 0x1e, 0xee, 0x2e, 0xe5,
    0x08, 0x39, 0x13, 0xf3, 0xdc, 0xe8, 0xe2, 0x00, 0xf7, 0xf3, 0xd6, 0x1d,
    0x0e, 0xf0, 0xd8, 0xf0, 0x34, 0xf8, 0xf7, 0x14, 0x1d, 0xf0, 0xe2, 0xe6,
    0x81, 0x02, 0xf3, 0xf0, 0xc5, 0xe1, 0xf9, 0xd4, 0xe3, 0xe3, 0x00, 0x00,
    0x46, 0x22, 0xd7, 0x0e, 0x1f, 0x18, 0x3e, 0xde, 0xcb, 0x0f, 0x0c, 0x00,
    0xf7, 0xe8, 0xfb, 0x39, 0x6e, 0xf1, 0xf5, 0x09, 0x08, 0xcc, 0xde, 0x0f,
    0x3d, 0x09, 0x32, 0xe8, 0xf7, 0xfe, 0x16, 0xdd, 0x29, 0xd9, 0xcb, 0xe6,
    0x0e, 0xdd, 0x0a, 0xda, 0xfd, 0xff, 0x25, 0xde, 0x23, 0x24, 0xe0, 0xeb,
    0x03, 0x0b, 0x11, 0x1c, 0xda, 0xe9, 0x19, 0xd0, 0xdd, 0xe6, 0xfb, 0xfd,
    0xcb, 0xe7, 0x2d, 0xde, 0x81, 0xce, 0xfc, 0x0f, 0xce, 0x21, 0x0d, 0xf2,
    0xe9, 0xed, 0x00, 0x00, 0xcf, 0x29, 0x2d, 0x0b, 0xdd, 0x49, 0xd1, 0xc5,
    0x0f, 0x20, 0xe7, 0xd8, 0xee, 0xd8, 0xef, 0xd4, 0xb3, 0x31, 0xd0, 0x1e,
    0x63, 0xec, 0x37, 0xf7, 0x2e, 0x4d, 0xe8, 0x33, 0xeb, 0x4e, 0x02, 0x33,
    0xf7, 0xe0, 0x29, 0xfc, 0xd1, 0x1f, 0x3a, 0xf9, 0xe7, 0xea, 0x11, 0x20,
    0x0d, 0xf7, 0xbf, 0xd0, 0xe9, 0xf1, 0xd7, 0xbd, 0x14, 0x2e, 0x01, 0xf3,
    0xe1, 0xe8, 0xd4, 0xff, 0x03, 0xf5, 0xd9, 0xfd, 0x81, 0x98, 0x15, 0x1d,
    0xb0, 0x1b, 0x2f, 0xea, 0xb1, 0xdf, 0x00, 0x00, 0x34, 0x33, 0x54, 0xcf,
    0x15, 0x0d, 0x64, 0x12, 0xe9, 0x39, 0xc8, 0xd2, 0x59, 0xd7, 0x2d, 0xbd,
    0xe8, 0x30, 0x50, 0xe9, 0xe0, 0xea, 0x28, 0x72, 0x81, 0x7d, 0x3e, 0x50,
    0x67, 0x8d, 0xaf, 0xcd, 0x1f, 0x53, 0xc9, 0x2c, 0x1e, 0xb4, 0x2a, 0x28,
    0x34, 0xf7, 0xd9, 0xb2, 0xaf, 0xe7, 0xdb, 0x4e, 0xac, 0xbb, 0xc3, 0xb0,
    0x0f, 0x5b, 0x0c, 0xff, 0x3f, 0xca, 0x14, 0x39, 0x23, 0xef, 0x61, 0x6f,
    0x50, 0xc1, 0x04, 0xe7, 0x02, 0x97, 0xa0, 0x0b, 0x1b, 0xd0, 0x00, 0x00,
    0xc4, 0x28, 0xc3, 0xbc, 0xe5, 0x1d, 0xb5, 0x64, 0xc3, 0xe8, 0x0d, 0xe6,
    0xc2, 0xc5, 0x51, 0xc4, 0xe2, 0xeb, 0x12, 0xc9, 0x1e, 0xea, 0xf9, 0xce,
    0xf1, 0x02, 0xe7, 0xb8, 0x02, 0x29, 0xba, 0xe7, 0xf2, 0xc0, 0x0d, 0x19,
    0x04, 0xdd, 0xc5, 0x03, 0x35, 0x1c, 0xf8, 0xf5, 0xe8, 0x19, 0x0c, 0x43,
    0xdd, 0x23, 0xce, 0x23, 0x25, 0x29, 0x11, 0x69, 0x0d, 0x24, 0x06, 0xd2,
    0xd9, 0x08, 0x3b, 0x53, 0xb1, 0xbc, 0xf2, 0xfe, 0x81, 0xd0, 0xcd, 0xce,
    0xbe, 0xc3, 0x00, 0x00, 0xe4, 0x0e, 0xf2, 0xa2, 0xe0, 0xb9, 0xb1, 0xdb,
    0xc3, 0xe5, 0x11, 0x0b, 0xce, 0x1f, 0x53, 0xfc, 0xe2, 0x28, 0xdd, 0x4d,
    0xcf, 0x7f, 0x41, 0x0f, 0xc5, 0xdb, 0xeb, 0xe8, 0x1c, 0x21, 0x05, 0xb7,
    0xe0, 0xed, 0xa4, 0x16, 0xe6, 0xcc, 0xfc, 0xc8, 0x3d, 0x34, 0xf6, 0xd1,
    0xb8, 0xda, 0xca, 0xe4, 0x53, 0x66, 0x07, 0x02, 0xcc, 0xca, 0xd0, 0xde,
    0x5b, 0x62, 0x23, 0xdc, 0x20, 0x05, 0xfb, 0x1b, 0x4f, 0x18, 0xf8, 0x11,
    0x41, 0x02, 0x41, 0x19, 0xba, 0xfe, 0x00, 0x00, 0xbf, 0xf9, 0x14, 0xc7,
    0xd4, 0x10, 0xdc, 0xff, 0xec, 0xcb, 0xd3, 0x2a, 0xdc, 0x22, 0xbc, 0x3b,
    0xce, 0x23, 0x4a, 0x09, 0x13, 0x3a, 0x11, 0xc8, 0x03, 0xe0, 0x19, 0x19,
    0x06, 0x07, 0xfb, 0x00, 0x47, 0x13, 0xfe, 0xd6, 0xdf, 0xf7, 0xee, 0xed,
    0x21, 0xba, 0x1b, 0xb5, 0xf1, 0x0a, 0xc6, 0x0c, 0x1f, 0xda, 0xdb, 0xfd,
    0xed, 0x13, 0x0f, 0xc4, 0x28, 0xc1, 0x1b, 0x17, 0xee, 0xfe, 0xd7, 0xc4,
    0xc2, 0x81, 0xe1, 0x07, 0xa1, 0xb5, 0xb3, 0x13, 0xb5, 0xf0, 0x00, 0x00,
    0xf7, 0x0d, 0xdd, 0xf5, 0xef, 0xdc, 0xfb, 0xe4, 0x01, 0xd5, 0xd9, 0x17,
    0xf4, 0xfd, 0xff, 0xf0, 0xe4, 0xde, 0xd6, 0x1c, 0x05, 0xf1, 0x18, 0xda,
    0x12, 0x02, 0xe5, 0x15, 0x13, 0x04, 0xf7, 0x09, 0xe3, 0xeb, 0x0a, 0xed,
    0x07, 0x1a, 0x22, 0x04, 0xfc, 0xf1, 0xf8, 0x21, 0xf1, 0xff, 0x00, 0x14,
    0xd8, 0xea, 0xe7, 0xf0, 0x2c, 0x1c, 0xe3, 0x01, 0xf1, 0xf0, 0xda, 0x18,
    0xf4, 0xfe, 0x12, 0xec, 0xec, 0x4f, 0x16, 0xf4, 0x7f, 0x26, 0x24, 0x07,
    0xfa, 0x2e, 0x00, 0x00, 0xba, 0xd1, 0x0a, 0x38, 0x81, 0x85, 0xb7, 0x97,
    0xe4, 0xfd, 0x50, 0x3e, 0x0a, 0x14, 0xc7, 0x02, 0xef, 0x1c, 0x0f, 0x69,
    0xc2, 0xf6, 0x33, 0x3b, 0xb7, 0x2d, 0x2e, 0xd3, 0x58, 0x9e, 0xeb, 0x2e,
    0xf8, 0x8d, 0x29, 0x2a, 0x7a, 0xee, 0x5d, 0xa5, 0xac, 0xc4, 0x48, 0xb4,
    0x4d, 0xc3, 0x26, 0x24, 0xe5, 0x08, 0x9b, 0xf0, 0x25, 0x48, 0xef, 0xc6,
    0x02, 0x03, 0xb2, 0xaa, 0x5b, 0x6b, 0x31, 0x19, 0x5b, 0x38, 0x33, 0xa0,
    0xfd, 0x10, 0x2f, 0xf1, 0x55, 0x78, 0x00, 0x00, 0x7f, 0x6d, 0x30, 0xda,
    0x68, 0xda, 0x37, 0x21, 0x41, 0xe3, 0xc7, 0x50, 0xc7, 0x03, 0x4d, 0x46,
    0xba, 0x4d, 0x4a, 0x3c, 0xdf, 0x01, 0x6b, 0x17, 0x5f, 0x1f, 0x1a, 0xd0,
    0xbb, 0x2e, 0xc3, 0x24, 0x10, 0xac, 0x1d, 0xe7, 0x38, 0x32, 0x18, 0x3e,
    0xba, 0x23, 0x1b, 0xaf, 0xc8, 0xc4, 0xf7, 0x35, 0xea, 0xe5, 0xd2, 0x20,
    0x06, 0x48, 0xfc, 0x2e, 0xfb, 0x20, 0x4d, 0x30, 0xe8, 0xc0, 0x50, 0xd8,
    0xe8, 0x33, 0xda, 0xc5, 0xfe, 0xb3, 0xda, 0xae, 0xd0, 0xb1, 0x00, 0x00,
    0x23, 0xba, 0x29, 0x46, 0xd8, 0x27, 0x3e, 0x56, 0xb4, 0x29, 0x56, 0x0d,
    0x12, 0xe3, 0xd5, 0xb9, 0xc7, 0x24, 0xfb, 0xc7, 0x67, 0xc9, 0x18, 0x36,
    0x0b, 0xb8, 0xc6, 0xdc, 0xf4, 0x11, 0x1f, 0xa8, 0x3e, 0xa5, 0xe0, 0xdb,
    0x00, 0x0e, 0xe6, 0x16, 0x25, 0x22, 0x1b, 0xe0, 0xe5, 0xe9, 0xe1, 0x13,
    0x5e, 0xb4, 0x0a, 0x10, 0xfa, 0x4b, 0x02, 0x06, 0x3f, 0x3d, 0x1a, 0x00,
    0x39, 0x3f, 0xd0, 0x10, 0xdb, 0xea, 0x0b, 0x16, 0xcd, 0x4d, 0xca, 0xe6,
    0x3f, 0x81, 0x00, 0x00, 0xaa, 0xcd, 0xeb, 0x1d, 0xd1, 0xd3, 0x3b, 0x7f,
    0x0a, 0xcd, 0x30, 0x49, 0x2d, 0xcf, 0xac, 0x3c, 0x18, 0xf4, 0xe0, 0x90,
    0x33, 0x5a, 0x2d, 0x5c, 0x4e, 0xee, 0xe4, 0xcc, 0xb9, 0x3d, 0x2a, 0xed,
    0x29, 0x27, 0x1e, 0xa8, 0x26, 0xb5, 0x03, 0xe6, 0x0e, 0x5b, 0xd0, 0xb9,
    0x1b, 0x10, 0x3b, 0x56, 0xe6, 0x1b, 0x0b, 0xf9, 0xdb, 0x0d, 0x0b, 0x6e,
    0x39, 0xfd, 0x67, 0x16, 0xa9, 0xf8, 0x21, 0x39, 0xe4, 0xb0, 0xc0, 0x14,
    0x89, 0x0f, 0xc3, 0x13, 0x22, 0xfe, 0x00, 0x00, 0x38, 0x53, 0xc4, 0xff,
    0xc1, 0xce, 0xd3, 0xe4, 0xf0, 0x6b, 0x57, 0xe7, 0xfd, 0x09, 0xac, 0x00,
    0x0a, 0xf2, 0x63, 0xfd, 0xd9, 0x84, 0x37, 0x47, 0xcb, 0x45, 0x63, 0xc8,
    0x34, 0xdd, 0xb4, 0x35, 0xdb, 0x16, 0x7f, 0x2d, 0x16, 0xa9, 0xa8, 0xa1,
    0xe1, 0x18, 0x44, 0xc8, 0x1e, 0x07, 0x3b, 0xe5, 0xd5, 0xc6, 0xd3, 0x40,
    0xfb, 0xe3, 0x29, 0x20, 0x63, 0x28, 0x1d, 0xf5, 0xad, 0x54, 0x22, 0x64,
    0x01, 0xfd, 0xe9, 0x52, 0x1a, 0x38, 0x8a, 0x08, 0xf6, 0x14, 0x00, 0x00,
    0x14, 0x18, 0x6b, 0x6f, 0xc9, 0xda, 0x45, 0xd4, 0x34, 0xcb, 0x32, 0xdd,
    0xbd, 0xd6, 0xea, 0xd9, 0x24, 0x40, 0x3f, 0x29, 0xe4, 0x9e, 0x23, 0xad,
    0xae, 0xaf, 0x4e, 0x1a, 0x14, 0xa3, 0xe6, 0x25, 0x14, 0x16, 0x6d, 0x57,
    0xa9, 0xe0, 0xb5, 0xad, 0xce, 0xba, 0xf8, 0x74, 0x4b, 0xf3, 0xae, 0xf4,
    0x81, 0x4d, 0x54, 0x66, 0x5e, 0xec, 0xbd, 0xa1, 0xa7, 0x36, 0x98, 0xf3,
    0x41, 0x3b, 0xfb, 0x6e, 0x7d, 0x1e, 0xc8, 0xb6, 0x56, 0xf6, 0xfa, 0x4b,
    0xc2, 0x1c, 0x00, 0x00, 0xb2, 0x34, 0xfb, 0xc3, 0xf6, 0xd0, 0x3c, 0x3a,
    0x10, 0x27, 0x30, 0x1f, 0x43, 0x6d, 0xe0, 0x03, 0x3b, 0x1b, 0x1a, 0xc5,
    0x56, 0xd8, 0x0c, 0x1a, 0xfc, 0x4c, 0x27, 0x39, 0x44, 0x43, 0x42, 0x25,
    0xbb, 0x2a, 0xd2, 0x1f, 0x1f, 0x2c, 0x25, 0xb8, 0xfc, 0x07, 0xd5, 0x51,
    0x2e, 0x50, 0x14, 0xd9, 0x1e, 0xc1, 0xd4, 0xd3, 0xe3, 0xce, 0x36, 0x31,
    0xe4, 0x2c, 0xde, 0x22, 0x0a, 0x2e, 0x2c, 0xc4, 0xf0, 0x7f, 0x05, 0x3e,
    0x63, 0x05, 0x21, 0xff, 0x20, 0x0a, 0x00, 0x00, 0x37, 0x42, 0xdc, 0xc9,
    0x08, 0x3e, 0xee, 0x2f, 0x2c, 0x5a, 0x8d, 0xa1, 0xd2, 0x70, 0x4f, 0x95,
    0xb6, 0xd2, 0x49, 0x42, 0x53, 0x44, 0x15, 0xf5, 0xbd, 0xbf, 0x0d, 0xf8,
    0x46, 0x37, 0x2a, 0x21, 0x2f, 0xb4, 0x13, 0xe9, 0xfd, 0x2a, 0xf4, 0x08,
    0x37, 0x28, 0xd1, 0x62, 0x28, 0xbd, 0xf9, 0x09, 0x56, 0x2b, 0x00, 0xf7,
    0xf2, 0xb4, 0xf0, 0xee, 0x42, 0xb1, 0x23, 0x50, 0xce, 0xd9, 0x1a, 0xc6,
    0x72, 0xeb, 0xcd, 0x3d, 0x2f, 0x64, 0x13, 0x40, 0x0b, 0x7f, 0x00, 0x00,
    0xf2, 0xdc, 0x34, 0xff, 0x20, 0xae, 0x45, 0xd7, 0x04, 0x76, 0x1e, 0x55,
    0xc3, 0x52, 0xcc, 0x5b, 0x0f, 0xd0, 0x2f, 0x11, 0x14, 0xeb, 0x17, 0xfc,
    0x20, 0xf9, 0xec, 0x01, 0x5b, 0x37, 0x0c, 0xc0, 0x33, 0x57, 0x3f, 0x1f,
    0x06, 0x23, 0xc5, 0x15, 0xb9, 0x33, 0x5c, 0xc7, 0xc1, 0xd3, 0x11, 0xc9,
    0x43, 0x3e, 0x25, 0xb4, 0xf5, 0xa9, 0xe3, 0x49, 0x19, 0x17, 0xe4, 0xf8,
    0xf7, 0xf7, 0x2c, 0x06, 0xe4, 0x7f, 0x2a, 0xee, 0xe1, 0xbc, 0xf2, 0xef,
    0xba, 0x15, 0x00, 0x00, 0xa0, 0xfc, 0x9b, 0x1c, 0xdc, 0xac, 0xc2, 0x1f,
    0xcb, 0xc1, 0xf9, 0xe9, 0x07, 0xf1, 0xcb, 0xb3, 0xf9, 0xde, 0xd0, 0xd9,
    0x11, 0x0b, 0x0c, 0x9b, 0xaf, 0x28, 0xad, 0x22, 0x58, 0x6c, 0xdd, 0x9d,
    0x0f, 0xae, 0xf3, 0xfe, 0x1f, 0x5b, 0x54, 0x53, 0xdf, 0x09, 0x35, 0xe0,
    0xf8, 0xfc, 0xf4, 0x29, 0xec, 0x71, 0x2d, 0x11, 0x46, 0x21, 0x53, 0x2a,
    0x27, 0x04, 0xff, 0xff, 0xce, 0xf3, 0xe5, 0x30, 0x81, 0xec, 0xa7, 0x32,
    0xd7, 0xff, 0xca, 0x04, 0xc4, 0xd6, 0x00, 0x00, 0x96, 0x06, 0xdf, 0x3c,
    0x69, 0xe3, 0x25, 0xba, 0xb4, 0x59, 0xa7, 0x5a, 0xc5, 0xcf, 0xd9, 0xe6,
    0xa1, 0x6a, 0x4a, 0x6a, 0x2a, 0xae, 0xa1, 0xeb, 0xe6, 0x6d, 0xe0, 0x4e,
    0x0e, 0x8e, 0x81, 0x41, 0x96, 0x6d, 0x36, 0x49, 0x48, 0x9a, 0x06, 0xb6,
    0x8c, 0x4b, 0xa9, 0x9e, 0xb2, 0x45, 0x9e, 0xa4, 0x91, 0xe8, 0x07, 0xfe,
    0x92, 0x2a, 0x25, 0x2b, 0x4f, 0x9f, 0x1e, 0xa2, 0xbe, 0x1d, 0x6a, 0x08,
    0x79, 0xd4, 0xec, 0xdd, 0xf4, 0xd3, 0x39, 0xd3, 0x7c, 0xac, 0x00, 0x00,
    0x07, 0xcb, 0xac, 0x52, 0x0b, 0xe9, 0x59, 0x34, 0xc9, 0x81, 0x33, 0x21,
    0xea, 0x01, 0xb9, 0x54, 0xc5, 0x32, 0xa6, 0x17, 0xd8, 0xb7, 0x01, 0x06,
    0x34, 0x13, 0x14, 0xb9, 0xca, 0x08, 0x01, 0xb4, 0x01, 0x0e, 0x9d, 0xbb,
    0x05, 0x25, 0xc3, 0x48, 0x67, 0x43, 0xc6, 0x11, 0x31, 0x92, 0x41, 0x5d,
    0x02, 0x58, 0x5c, 0x07, 0x4e, 0xb5, 0x03, 0x70, 0x1d, 0xec, 0x3a, 0x33,
    0xf9, 0xe9, 0x1c, 0x17, 0x95, 0xdf, 0x5b, 0xe5, 0xb5, 0x9a, 0x93, 0xb2,
    0x13, 0xf9, 0x00, 0x00, 0xcb, 0x2a, 0xe2, 0xba, 0xfb, 0xd3, 0xda, 0xd1,
    0x1a, 0xfc, 0x31, 0xcb, 0xc9, 0x4c, 0xc8, 0x2a, 0x15, 0xe9, 0xec, 0x3c,
    0xbd, 0x3d, 0x11, 0xfe, 0x4d, 0xed, 0xca, 0x15, 0x1e, 0xdf, 0x36, 0xfb,
    0x17, 0x1a, 0xe3, 0x47, 0xdb, 0xc0, 0xad, 0x19, 0xfb, 0xef, 0x34, 0xdf,
    0xfa, 0x14, 0xf0, 0x04, 0x3c, 0xde, 0xeb, 0xf3, 0xed, 0x1e, 0x10, 0xec,
    0xc5, 0x24, 0xaf, 0xf4, 0xd8, 0xa3, 0x26, 0xb8, 0xcf, 0xc5, 0x1b, 0xd5,
    0x81, 0xf3, 0xaa, 0xf3, 0xaa, 0xef, 0x00, 0x00, 0xf9, 0xe0, 0xce, 0xf0,
    0xd9, 0x04, 0xf3, 0xe2, 0x05, 0xe6, 0xed, 0xf7, 0xe3, 0xfc, 0xe2, 0x0b,
    0x0b, 0xd9, 0x0f, 0x04, 0x1b, 0xf5, 0xef, 0xdb, 0x03, 0x03, 0xdc, 0x01,
    0x02, 0xdc, 0x0d, 0xe7, 0xf6, 0x09, 0x03, 0x08, 0x0b, 0x14, 0xe6, 0x17,
    0xd6, 0x0b, 0x0c, 0x16, 0x36, 0x16, 0x1e, 0xd2, 0xdf, 0xfa, 0xf0, 0x0f,
    0x24, 0xf4, 0xe2, 0xec, 0xec, 0xe4, 0xdb, 0x1b, 0xe4, 0xd7, 0xda, 0xfd,
    0x13, 0x1a, 0x1a, 0x24, 0x7f, 0x19, 0xe0, 0x26, 0x16, 0xf8, 0x00, 0x00,
    0x2f, 0xf2, 0xf4, 0xde, 0x2d, 0x16, 0x00, 0xfc, 0xc2, 0x02, 0x2b, 0xfb,
    0xc7, 0x16, 0xe1, 0xce, 0xfd, 0xf5, 0x20, 0x14, 0xf7, 0xf4, 0x2e, 0xc5,
    0x0d, 0xc8, 0x22, 0xc1, 0x0f, 0xe9, 0xdf, 0xfc, 0xdd, 0x2a, 0x23, 0xe7,
    0x10, 0xf0, 0xef, 0x15, 0x42, 0xf8, 0x1f, 0xed, 0x28, 0x04, 0xd0, 0x06,
    0x26, 0xd8, 0xda, 0xc9, 0xcb, 0xd6, 0x1d, 0x24, 0xd0, 0x13, 0x01, 0x00,
    0xb9, 0x0e, 0xe8, 0xec, 0x81, 0x9e, 0x1e, 0xed, 0xd7, 0xf4, 0xcd, 0xf4,
    0xf6, 0xa8, 0x00, 0x00, 0x08, 0xdd, 0x0f, 0x11, 0xfd, 0x12, 0xeb, 0xf6,
    0xdc, 0xcd, 0x1c, 0xc8, 0x04, 0xdf, 0xd6, 0xe4, 0xec, 0xc1, 0xac, 0x1f,
    0x4f, 0xdc, 0x26, 0x4c, 0x0f, 0xc4, 0xba, 0xe6, 0xe5, 0x22, 0xc9, 0xb2,
    0x0c, 0x46, 0x2c, 0x11, 0x04, 0x4f, 0xf7, 0xd1, 0x07, 0x43, 0x9e, 0x32,
    0xe7, 0x21, 0x33, 0xf5, 0x21, 0xde, 0x31, 0xe1, 0x43, 0x01, 0x26, 0x19,
    0xd6, 0x2d, 0xb1, 0xdd, 0x32, 0xcf, 0xb7, 0xa0, 0x0e, 0xe8, 0xf5, 0x2c,
    0x04, 0x1d, 0x55, 0xf7, 0x4c, 0x7f, 0x00, 0x00, 0xb4, 0xc0, 0xe4, 0xeb,
    0xc9, 0x17, 0x1e, 0x1c, 0x08, 0xc8, 0x13, 0xe2, 0xd5, 0x08, 0x56, 0x32,
    0xf5, 0xc8, 0xee, 0xed, 0x1c, 0x2f, 0x8f, 0x58, 0xc0, 0x5f, 0x60, 0x01,
    0x3b, 0xba, 0x05, 0x38, 0xe1, 0xe9, 0x63, 0x0e, 0x1a, 0xe3, 0x0d, 0x4f,
    0x26, 0xc0, 0xd3, 0xeb, 0x55, 0xeb, 0x62, 0x37, 0xec, 0x6a, 0x1a, 0x27,
    0x46, 0xf3, 0x5b, 0xbd, 0x66, 0x1d, 0xf5, 0xcf, 0xa0, 0xea, 0xdc, 0xc4,
    0x7a, 0x0c, 0x45, 0x3d, 0xf8, 0xc3, 0xf8, 0xa3, 0x7f, 0xfa, 0x00, 0x00,
    0xdf, 0xcd, 0xe6, 0x11, 0xf9, 0x16, 0x04, 0xfb, 0xec, 0x04, 0x25, 0xf8,
    0xe4, 0xe3, 0xda, 0xff, 0x08, 0x0f, 0x0d, 0xc7, 0xff, 0xf7, 0xdd, 0xe8,
    0xcd, 0xf8, 0xd7, 0x23, 0x2b, 0xf6, 0xe7, 0x31, 0x19, 0xde, 0xf8, 0xf4,
    0x0f, 0x23, 0x16, 0x04, 0xfe, 0x1e, 0x0f, 0x0b, 0xe0, 0xfe, 0xf3, 0xe0,
    0x15, 0xfb, 0x22, 0x12, 0xfe, 0xf1, 0x33, 0xca, 0xe7, 0xe5, 0xed, 0xfc,
    0xd6, 0xda, 0xe3, 0xfd, 0x81, 0xa2, 0x08, 0xcc, 0x88, 0xd4, 0xf7, 0x08,
    0xc6, 0xb2, 0x00, 0x00, 0x51, 0x5d, 0x3e, 0xf8, 0x6a, 0x61, 0x17, 0x49,
    0x47, 0x35, 0xda, 0xd2, 0x95, 0x23, 0x2a, 0xde, 0xde, 0x25, 0xec, 0xfb,
    0x1a, 0x81, 0xcb, 0x72, 0xc7, 0xbc, 0x07, 0x35, 0x05, 0x90, 0x3b, 0xf9,
    0xd5, 0xd8, 0x19, 0x1e, 0x35, 0x30, 0x57, 0x28, 0x23, 0x18, 0xa7, 0x97,
    0x9a, 0x11, 0xe3, 0xf5, 0x3a, 0xe7, 0x11, 0xc8, 0x04, 0xf0, 0xe6, 0xd0,
    0x3e, 0xe6, 0x1d, 0xfa, 0xdd, 0x01, 0xf4, 0xcb, 0x3c, 0x90, 0xa5, 0xed,
    0xa9, 0x30, 0x9e, 0xe6, 0xef, 0xe5, 0x00, 0x00, 0x43, 0x05, 0xd5, 0xf5,
    0xae, 0xcb, 0x14, 0x63, 0x5f, 0x2d, 0xf1, 0xe3, 0x6f, 0xb4, 0x2a, 0xe1,
    0xbe, 0xd0, 0xc2, 0xd1, 0xfb, 0xff, 0x46, 0xd2, 0x4d, 0x4d, 0xb3, 0x34,
    0xab, 0x4d, 0x2a, 0x1d, 0xd9, 0x40, 0xba, 0xa6, 0xfc, 0xbe, 0x1c, 0x61,
    0x7b, 0xfc, 0x18, 0xfa, 0x19, 0xf8, 0xec, 0xf9, 0xf5, 0xf9, 0x15, 0x22,
    0xf4, 0x11, 0x21, 0x1b, 0xd7, 0xe7, 0xe6, 0xdb, 0xac, 0x3a, 0xf3, 0xef,
    0x97, 0x13, 0x9c, 0x2f, 0xb6, 0xb2, 0x81, 0xf6, 0xd4, 0xb5, 0x00, 0x00,
    0x04, 0x33, 0xa6, 0x37, 0x44, 0x4f, 0x51, 0x1c, 0x4d, 0xc3, 0xc5, 0x3f,
    0xa6, 0xd9, 0x06, 0xef, 0x56, 0xfb, 0x18, 0xd4, 0xde, 0xc5, 0xf2, 0x2f,
    0xca, 0xd7, 0x1e, 0xc8, 0xd8, 0xee, 0xcd, 0xdb, 0x2d, 0x0f, 0xde, 0xdb,
    0x0a, 0x1f, 0xc9, 0x39, 0x0c, 0xcb, 0xce, 0x29, 0xff, 0xbe, 0xc7, 0x1e,
    0x4f, 0x17, 0xf2, 0xb2, 0xa1, 0x24, 0xef, 0xc4, 0x0d, 0xee, 0xcf, 0xc0,
    0x11, 0x0e, 0xa4, 0x55, 0x81, 0xd2, 0x11, 0xe4, 0xa2, 0xdd, 0x07, 0xf3,
    0xd6, 0x10, 0x00, 0x00, 0xfe, 0xfc, 0xff, 0xff, 0x04, 0x00, 0x00, 0x00,
    0x80, 0x00, 0x00, 0x00, 0x55, 0x00, 0x00, 0x00, 0x7f, 0x01, 0x00, 0x00,
    0x55, 0x03, 0x00, 0x00, 0x1e, 0x03, 0x00, 0x00, 0x4a, 0x01, 0x00, 0x00,
    0x3c, 0x03, 0x00, 0x00, 0xf9, 0xfb, 0xff, 0xff, 0xd4, 0x02, 0x00, 0x00,
    0x2d, 0x03, 0x00, 0x00, 0x04, 0x05, 0x00, 0x00, 0x3e, 0x03, 0x00, 0x00,
    0xa4, 0x01, 0x00, 0x00, 0xc3, 0x01, 0x00, 0x00, 0xe7, 0xfe, 0xff, 0xff,
    0x77, 0x0f, 0x00, 0x00, 0xcf, 0xfb, 0xff, 0xff, 0xe0, 0x02, 0x00, 0x00,
    0x48, 0x03, 0x00, 0x00, 0x49, 0x03, 0x00, 0x00, 0xef, 0xfd, 0xff, 0xff,
    0x51, 0x09, 0x00, 0x00, 0x79, 0x00, 0x00, 0x00, 0xae, 0x03, 0x00, 0x00,
    0x01, 0x00, 0x00, 0x00, 0x91, 0x02, 0x00, 0x00, 0xdb, 0x03, 0x00, 0x00,
    0x1f, 0xff, 0xff, 0xff, 0x3b, 0xfd, 0xff, 0xff, 0x8d, 0x03, 0x00, 0x00,
    0x2f, 0x00, 0x00, 0x00, 0x3c, 0x04, 0x00, 0x00, 0xe9, 0x02, 0x00, 0x00,
    0x8a, 0xfd, 0xff, 0xff, 0x04, 0x00, 0x00, 0x00, 0x00, 0x02, 0x00, 0x00,
    0x1a, 0xed, 0x7f, 0x0a, 0xd8, 0x45, 0x13, 0x1c, 0x95, 0x77, 0xd0, 0xb0,
    0x5c, 0x17, 0x27, 0x05, 0xc8, 0xe6, 0x22, 0x56, 0x2e, 0xef, 0x5f, 0x6c,
    0x08, 0x03, 0x0e, 0xbe, 0x4b, 0x43, 0x17, 0x31, 0xc5, 0x4e, 0x1f, 0x34,
    0xe2, 0xe1, 0xc8, 0x1b, 0x40, 0x90, 0x6e, 0x7f, 0xb4, 0x2d, 0x0e, 0x1b,
    0x7c, 0xfd, 0x43, 0xe6, 0xdb, 0xda, 0x9a, 0x01, 0xdd, 0xd7, 0xb9, 0xdc,
    0x58, 0xc1, 0xcc, 0x64, 0x6b, 0x61, 0xac, 0xa4, 0xc0, 0xdc, 0x19, 0x35,
    0xb6, 0xf5, 0x27, 0xf8, 0x8b, 0xa4, 0x3e, 0x55, 0x7f, 0x7d, 0xfe, 0x41,
    0x35, 0x69, 0x44, 0xca, 0xfa, 0x38, 0x74, 0x35, 0x27, 0x3a, 0x93, 0x06,
    0xca, 0xe9, 0x27, 0x12, 0x44, 0x5d, 0xc5, 0x3a, 0x07, 0x21, 0xce, 0xd4,
    0xe8, 0x1c, 0x03, 0xbf, 0xe2, 0x08, 0xe1, 0xf9, 0x5b, 0x4e, 0x28, 0x19,
    0xc4, 0x59, 0x05, 0xf6, 0x7f, 0xc4, 0x39, 0x5d, 0xf0, 0x02, 0x32, 0xe9,
    0xd1, 0xf9, 0x14, 0xbf, 0x2b, 0x18, 0x7b, 0x64, 0x21, 0xd4, 0xde, 0x14,
    0x0a, 0x3f, 0x53, 0x01, 0x2f, 0x47, 0x10, 0xea, 0x7f, 0xfa, 0x02, 0x1e,
    0xca, 0x19, 0x16, 0xc1, 0x1b, 0x08, 0xe9, 0x01, 0x0a, 0x1a, 0x4d, 0x1d,
    0x4b, 0x36, 0x77, 0x37, 0xe7, 0xf0, 0x12, 0xfc, 0x02, 0x2d, 0x2b, 0x4b,
    0x4a, 0x53, 0xb8, 0xcd, 0x7f, 0x40, 0x37, 0xe7, 0x91, 0xcf, 0xac, 0x07,
    0xf0, 0xe0, 0xc0, 0xdd, 0xc8, 0xc9, 0x2b, 0x25, 0x0a, 0x1c, 0xc6, 0x38,
    0xb7, 0x41, 0xcd, 0xf9, 0xc5, 0x6c, 0x0a, 0x02, 0x56, 0x7f, 0xc3, 0x41,
    0xed, 0xfd, 0x20, 0xba, 0xc8, 0xf4, 0xde, 0x33, 0xf7, 0x2f, 0xc7, 0x1e,
    0xd3, 0xec, 0x2d, 0xe3, 0x7f, 0x25, 0x13, 0xf0, 0x1e, 0xea, 0x1b, 0xfe,
    0xd4, 0xfd, 0x01, 0x0c, 0xd7, 0x62, 0xe8, 0x4b, 0x0f, 0xda, 0xdd, 0xed,
    0xc7, 0xf3, 0x45, 0xf2, 0xc0, 0xf0, 0x05, 0x57, 0xd9, 0x34, 0x29, 0x6f,
    0xcd, 0x7f, 0xd6, 0x0d, 0xbd, 0x4c, 0x46, 0x27, 0x41, 0x58, 0x5f, 0xc9,
    0x26, 0xd9, 0xed, 0x10, 0xf3, 0x70, 0xd4, 0x2d, 0x49, 0x6f, 0xce, 0x45,
    0x0b, 0x3f, 0x95, 0x14, 0x54, 0xbc, 0xab, 0x2d, 0x72, 0xc5, 0xfa, 0xe3,
    0x39, 0xef, 0x01, 0x2a, 0x29, 0x68, 0x7f, 0xea, 0xf1, 0x74, 0xf5, 0xdd,
    0x5c, 0x45, 0xdd, 0xac, 0xbc, 0xdb, 0xcf, 0x2b, 0xff, 0x5e, 0x74, 0x45,
    0x69, 0x5b, 0xe5, 0x3b, 0x16, 0x2b, 0x22, 0x81, 0x22, 0xb6, 0x18, 0x32,
    0xe1, 0x51, 0x9c, 0xcf, 0x34, 0x01, 0x6a, 0x36, 0xdd, 0x6e, 0xc7, 0x09,
    0xe9, 0x0f, 0x73, 0xe0, 0xcc, 0x39, 0xcc, 0x2b, 0xe9, 0xc7, 0x48, 0xdb,
    0xbc, 0xbb, 0x7f, 0xf4, 0x9b, 0x07, 0xf9, 0xd6, 0xce, 0x55, 0x54, 0x25,
    0x41, 0x49, 0xfc, 0x07, 0xce, 0x40, 0x47, 0x73, 0xcd, 0xcf, 0xb7, 0xe8,
    0xe2, 0x1d, 0x0b, 0x14, 0xb8, 0x14, 0xe1, 0xef, 0xe5, 0xef, 0x03, 0xb4,
    0xd3, 0xe6, 0x02, 0x7f, 0x75, 0xfa, 0xfc, 0x26, 0x04, 0x5d, 0xe9, 0x30,
    0x12, 0x10, 0xf7, 0xfa, 0xb8, 0xde, 0xe5, 0x59, 0xd7, 0x0a, 0x7f, 0x20,
    0xfc, 0x2a, 0x1d, 0x62, 0xcf, 0x05, 0xd1, 0xd7, 0xb7, 0x0b, 0x1e, 0xf2,
    0xcd, 0x30, 0x39, 0xe1, 0x1b, 0x09, 0x5e, 0xe5, 0xcc, 0x15, 0xff, 0x5b,
    0x6c, 0xe8, 0x47, 0x02, 0x08, 0xee, 0x6b, 0xc7, 0x9a, 0xb8, 0x1b, 0xd8,
    0xf8, 0x00, 0x5d, 0x07, 0x00, 0xdb, 0xf0, 0xcd, 0x1e, 0x7a, 0xcb, 0x57,
    0x18, 0xce, 0x06, 0xee, 0x7f, 0xd9, 0xde, 0x02, 0x29, 0xf2, 0x23, 0xb9,
    0xcc, 0x05, 0x7f, 0xf7, 0x34, 0x4e, 0x2e, 0xe8, 0xdb, 0x69, 0xbf, 0x4f,
    0x27, 0x18, 0x21, 0xea, 0xee, 0xc7, 0xf7, 0x02, 0x25, 0xe5, 0x56, 0x4c,
    0xf9, 0x11, 0xfe, 0x14, 0x29, 0xca, 0x4c, 0x3d, 0x96, 0xff, 0xff, 0xff,
    0x04, 0x00, 0x00, 0x00, 0x40, 0x00, 0x00, 0x00, 0xa6, 0x04, 0x00, 0x00,
    0x10, 0x05, 0x00, 0x00, 0xe5, 0x04, 0x00, 0x00, 0x27, 0x05, 0x00, 0x00,
    0x3a, 0x0a, 0x00, 0x00, 0xb6, 0x03, 0x00, 0x00, 0x57, 0xfa, 0xff, 0xff,
    0x2e, 0xff, 0xff, 0xff, 0x0f, 0x03, 0x00, 0x00, 0x68, 0x05, 0x00, 0x00,
    0x7d, 0x00, 0x00, 0x00, 0xa0, 0x05, 0x00, 0x00, 0xc5, 0x04, 0x00, 0x00,
    0x20, 0x09, 0x00, 0x00, 0x87, 0x01, 0x00, 0x00, 0xc0, 0x0d, 0x00, 0x00,
    0xe2, 0xff, 0xff, 0xff, 0x04, 0x00, 0x00, 0x00, 0x10, 0x00, 0x00, 0x00,
    0xc4, 0x48, 0x5a, 0x81, 0x21, 0x65, 0x36, 0x22, 0xb0, 0x40, 0x99, 0x5d,
    0x3c, 0xde, 0x64, 0xde, 0x00, 0x00, 0x06, 0x00, 0x08, 0x00, 0x04, 0x00,
    0x06, 0x00, 0x00, 0x00, 0x04, 0x00, 0x00, 0x00, 0x04, 0x00, 0x00, 0x00,
    0x9f, 0xff, 0xff, 0xff, 0x54, 0xff, 0xff, 0xff, 0x58, 0xff, 0xff, 0xff,
    0x0f, 0x00, 0x00, 0x00, 0x4d, 0x4c, 0x49, 0x52, 0x20, 0x43, 0x6f, 0x6e,
    0x76, 0x65, 0x72, 0x74, 0x65, 0x64, 0x2e, 0x00, 0x01, 0x00, 0x00, 0x00,
    0x14, 0x00, 0x00, 0x00, 0x00, 0x00, 0x0e, 0x00, 0x18, 0x00, 0x14, 0x00,
    0x10, 0x00, 0x0c, 0x00, 0x08, 0x00, 0x04, 0x00, 0x0e, 0x00, 0x00, 0x00,
    0x14, 0x00, 0x00, 0x00, 0x1c, 0x00, 0x00, 0x00, 0x1c, 0x01, 0x00, 0x00,
    0x20, 0x01, 0x00, 0x00, 0x24, 0x01, 0x00, 0x00, 0x04, 0x00, 0x00, 0x00,
    0x6d, 0x61, 0x69, 0x6e, 0x00, 0x00, 0x00, 0x00, 0x04, 0x00, 0x00, 0x00,
    0xc4, 0x00, 0x00, 0x00, 0x7c, 0x00, 0x00, 0x00, 0x34, 0x00, 0x00, 0x00,
    0x10, 0x00, 0x00, 0x00, 0x00, 0x00, 0x0a, 0x00, 0x10, 0x00, 0x0c, 0x00,
    0x08, 0x00, 0x04, 0x00, 0x0a, 0x00, 0x00, 0x00, 0x0c, 0x00, 0x00, 0x00,
    0x10, 0x00, 0x00, 0x00, 0x01, 0x00, 0x00, 0x00, 0x01, 0x00, 0x00, 0x00,
    0x0a, 0x00, 0x00, 0x00, 0x01, 0x00, 0x00, 0x00, 0x09, 0x00, 0x00, 0x00,
    0xca, 0xff, 0xff, 0xff, 0x14, 0x00, 0x00, 0x00, 0x00, 0x00, 0x00, 0x08,
    0x10, 0x00, 0x00, 0x00, 0x14, 0x00, 0x00, 0x00, 0x04, 0x00, 0x04, 0x00,
    0x04, 0x00, 0x00, 0x00, 0x01, 0x00, 0x00, 0x00, 0x09, 0x00, 0x00, 0x00,
    0x03, 0x00, 0x00, 0x00, 0x08, 0x00, 0x00, 0x00, 0x02, 0x00, 0x00, 0x00,
    0x01, 0x00, 0x00, 0x00, 0x00, 0x00, 0x0e, 0x00, 0x14, 0x00, 0x00, 0x00,
    0x10, 0x00, 0x0c, 0x00, 0x0b, 0x00, 0x04, 0x00, 0x0e, 0x00, 0x00, 0x00,
    0x10, 0x00, 0x00, 0x00, 0x00, 0x00, 0x00, 0x08, 0x10, 0x00, 0x00, 0x00,
    0x14, 0x00, 0x00, 0x00, 0xba, 0xff, 0xff, 0xff, 0x00, 0x00, 0x00, 0x01,
    0x01, 0x00, 0x00, 0x00, 0x08, 0x00, 0x00, 0x00, 0x03, 0x00, 0x00, 0x00,
    0x07, 0x00, 0x00, 0x00, 0x04, 0x00, 0x00, 0x00, 0x03, 0x00, 0x00, 0x00,
    0x00, 0x00, 0x0e, 0x00, 0x16, 0x00, 0x00, 0x00, 0x10, 0x00, 0x0c, 0x00,
    0x0b, 0x00, 0x04, 0x00, 0x0e, 0x00, 0x00, 0x00, 0x18, 0x00, 0x00, 0x00,
    0x00, 0x00, 0x00, 0x08, 0x18, 0x00, 0x00, 0x00, 0x1c, 0x00, 0x00, 0x00,
    0x00, 0x00, 0x06, 0x00, 0x08, 0x00, 0x07, 0x00, 0x06, 0x00, 0x00, 0x00,
    0x00, 0x00, 0x00, 0x01, 0x01, 0x00, 0x00, 0x00, 0x07, 0x00, 0x00, 0x00,
    0x03, 0x00, 0x00, 0x00, 0x00, 0x00, 0x00, 0x00, 0x06, 0x00, 0x00, 0x00,
    0x05, 0x00, 0x00, 0x00, 0x01, 0x00, 0x00, 0x00, 0x0a, 0x00, 0x00, 0x00,
    0x01, 0x00, 0x00, 0x00, 0x00, 0x00, 0x00, 0x00, 0x0b, 0x00, 0x00, 0x00,
    0x60, 0x09, 0x00, 0x00, 0xe8, 0x08, 0x00, 0x00, 0x6c, 0x08, 0x00, 0x00,
    0x58, 0x07, 0x00, 0x00, 0x3c, 0x06, 0x00, 0x00, 0x68, 0x04, 0x00, 0x00,
    0x8c, 0x02, 0x00, 0x00, 0xd8, 0x01, 0x00, 0x00, 0x1c, 0x01, 0x00, 0x00,
    0x80, 0x00, 0x00, 0x00, 0x04, 0x00, 0x00, 0x00, 0xe2, 0xf6, 0xff, 0xff,
    0x00, 0x00, 0x00, 0x01, 0x18, 0x00, 0x00, 0x00, 0x20, 0x00, 0x00, 0x00,
    0x3c, 0x00, 0x00, 0x00, 0x0b, 0x00, 0x00, 0x00, 0x00, 0x00, 0x00, 0x09,
    0x50, 0x00, 0x00, 0x00, 0x02, 0x00, 0x00, 0x00, 0xff, 0xff, 0xff, 0xff,
    0x01, 0x00, 0x00, 0x00, 0xcc, 0xf6, 0xff, 0xff, 0x08, 0x00, 0x00, 0x00,
    0x10, 0x00, 0x00, 0x00, 0x01, 0x00, 0x00, 0x00, 0x80, 0xff, 0xff, 0xff,
    0xff, 0xff, 0xff, 0xff, 0x01, 0x00, 0x00, 0x00, 0x00, 0x00, 0x80, 0x3b,
    0x1b, 0x00, 0x00, 0x00, 0x53, 0x74, 0x61, 0x74, 0x65, 0x66, 0x75, 0x6c,
    0x50, 0x61, 0x72, 0x74, 0x69, 0x74, 0x69, 0x6f, 0x6e, 0x65, 0x64, 0x43,
    0x61, 0x6c, 0x6c, 0x5f, 0x31, 0x3a, 0x30, 0x00, 0x02, 0x00, 0x00, 0x00,
    0x01, 0x00, 0x00, 0x00, 0x01, 0x00, 0x00, 0x00, 0x5a, 0xf7, 0xff, 0xff,
    0x00, 0x00, 0x00, 0x01, 0x18, 0x00, 0x00, 0x00, 0x20, 0x00, 0x00, 0x00,
    0x3c, 0x00, 0x00, 0x00, 0x0a, 0x00, 0x00, 0x00, 0x00, 0x00, 0x00, 0x09,
    0x70, 0x00, 0x00, 0x00, 0x02, 0x00, 0x00, 0x00, 0xff, 0xff, 0xff, 0xff,
    0x01, 0x00, 0x00, 0x00, 0x44, 0xf7, 0xff, 0xff, 0x08, 0x00, 0x00, 0x00,
    0x10, 0x00, 0x00, 0x00, 0x01, 0x00, 0x00, 0x00, 0x09, 0x00, 0x00, 0x00,
    0x00, 0x00, 0x00, 0x00, 0x01, 0x00, 0x00, 0x00, 0xa0, 0x09, 0x35, 0x3d,
    0x38, 0x00, 0x00, 0x00, 0x73, 0x65, 0x71, 0x75, 0x65, 0x6e, 0x74, 0x69,
    0x61, 0x6c, 0x5f, 0x31, 0x2f, 0x64, 0x65, 0x6e, 0x73, 0x65, 0x5f, 0x32,
    0x5f, 0x31, 0x2f, 0x4d, 0x61, 0x74, 0x4d, 0x75, 0x6c, 0x3b, 0x73, 0x65,
    0x71, 0x75, 0x65, 0x6e, 0x74, 0x69, 0x61, 0x6c, 0x5f, 0x31, 0x2f, 0x64,
    0x65, 0x6e, 0x73, 0x65, 0x5f, 0x32, 0x5f, 0x31, 0x2f, 0x41, 0x64, 0x64,
    0x00, 0x00, 0x00, 0x00, 0x02, 0x00, 0x00, 0x00, 0x01, 0x00, 0x00, 0x00,
    0x01, 0x00, 0x00, 0x00, 0xf2, 0xf7, 0xff, 0xff, 0x00, 0x00, 0x00, 0x01,
    0x18, 0x00, 0x00, 0x00, 0x20, 0x00, 0x00, 0x00, 0x3c, 0x00, 0x00, 0x00,
    0x09, 0x00, 0x00, 0x00, 0x00, 0x00, 0x00, 0x09, 0x90, 0x00, 0x00, 0x00,
    0x02, 0x00, 0x00, 0x00, 0xff, 0xff, 0xff, 0xff, 0x10, 0x00, 0x00, 0x00,
    0xdc, 0xf7, 0xff, 0xff, 0x08, 0x00, 0x00, 0x00, 0x10, 0x00, 0x00, 0x00,
    0x01, 0x00, 0x00, 0x00, 0x80, 0xff, 0xff, 0xff, 0xff, 0xff, 0xff, 0xff,
    0x01, 0x00, 0x00, 0x00, 0x70, 0x54, 0x54, 0x3c, 0x58, 0x00, 0x00, 0x00,
    0x73, 0x65, 0x71, 0x75, 0x65, 0x6e, 0x74, 0x69, 0x61, 0x6c, 0x5f, 0x31,
    0x2f, 0x64, 0x65, 0x6e, 0x73, 0x65, 0x5f, 0x31, 0x5f, 0x32, 0x2f, 0x4d,
    0x61, 0x74, 0x4d, 0x75, 0x6c, 0x3b, 0x73, 0x65, 0x71, 0x75, 0x65, 0x6e,
    0x74, 0x69, 0x61, 0x6c, 0x5f, 0x31, 0x2f, 0x64, 0x65, 0x6e, 0x73, 0x65,
    0x5f, 0x31, 0x5f, 0x32, 0x2f, 0x52, 0x65, 0x6c, 0x75, 0x3b, 0x73, 0x65,
    0x71, 0x75, 0x65, 0x6e, 0x74, 0x69, 0x61, 0x6c, 0x5f, 0x31, 0x2f, 0x64,
    0x65, 0x6e, 0x73, 0x65, 0x5f, 0x31, 0x5f, 0x32, 0x2f, 0x42, 0x69, 0x61,
    0x73, 0x41, 0x64, 0x64, 0x00, 0x00, 0x00, 0x00, 0x02, 0x00, 0x00, 0x00,
    0x01, 0x00, 0x00, 0x00, 0x10, 0x00, 0x00, 0x00, 0xaa, 0xf8, 0xff, 0xff,
    0x00, 0x00, 0x00, 0x01, 0x18, 0x00, 0x00, 0x00, 0x20, 0x00, 0x00, 0x00,
    0x3c, 0x00, 0x00, 0x00, 0x08, 0x00, 0x00, 0x00, 0x00, 0x00, 0x00, 0x09,
    0x88, 0x00, 0x00, 0x00, 0x02, 0x00, 0x00, 0x00, 0xff, 0xff, 0xff, 0xff,
    0x20, 0x00, 0x00, 0x00, 0x94, 0xf8, 0xff, 0xff, 0x08, 0x00, 0x00, 0x00,
    0x10, 0x00, 0x00, 0x00, 0x01, 0x00, 0x00, 0x00, 0x80, 0xff, 0xff, 0xff,
    0xff, 0xff, 0xff, 0xff, 0x01, 0x00, 0x00, 0x00, 0x22, 0xdb, 0x8e, 0x3c,
    0x52, 0x00, 0x00, 0x00, 0x73, 0x65, 0x71, 0x75, 0x65, 0x6e, 0x74, 0x69,
    0x61, 0x6c, 0x5f, 0x31, 0x2f, 0x64, 0x65, 0x6e, 0x73, 0x65, 0x5f, 0x31,
    0x2f, 0x4d, 0x61, 0x74, 0x4d, 0x75, 0x6c, 0x3b, 0x73, 0x65, 0x71, 0x75,
    0x65, 0x6e, 0x74, 0x69, 0x61, 0x6c, 0x5f, 0x31, 0x2f, 0x64, 0x65, 0x6e,
    0x73, 0x65, 0x5f, 0x31, 0x2f, 0x52, 0x65, 0x6c, 0x75, 0x3b, 0x73, 0x65,
    0x71, 0x75, 0x65, 0x6e, 0x74, 0x69, 0x61, 0x6c, 0x5f, 0x31, 0x2f, 0x64,
    0x65, 0x6e, 0x73, 0x65, 0x5f, 0x31, 0x2f, 0x42, 0x69, 0x61, 0x73, 0x41,
    0x64, 0x64, 0x00, 0x00, 0x02, 0x00, 0x00, 0x00, 0x01, 0x00, 0x00, 0x00,
    0x20, 0x00, 0x00, 0x00, 0xce, 0xf9, 0xff, 0xff, 0x00, 0x00, 0x00, 0x01,
    0x14, 0x00, 0x00, 0x00, 0xa8, 0x01, 0x00, 0x00, 0x07, 0x00, 0x00, 0x00,
    0x00, 0x00, 0x00, 0x09, 0xb4, 0x01, 0x00, 0x00, 0x34, 0xf9, 0xff, 0xff,
    0x08, 0x00, 0x00, 0x00, 0x0c, 0x01, 0x00, 0x00, 0x20, 0x00, 0x00, 0x00,
    0x00, 0x00, 0x00, 0x00, 0x00, 0x00, 0x00, 0x00, 0x00, 0x00, 0x00, 0x00,
    0x00, 0x00, 0x00, 0x00, 0x00, 0x00, 0x00, 0x00, 0x00, 0x00, 0x00, 0x00,
    0x00, 0x00, 0x00, 0x00, 0x00, 0x00, 0x00, 0x00, 0x00, 0x00, 0x00, 0x00,
    0x00, 0x00, 0x00, 0x00, 0x00, 0x00, 0x00, 0x00, 0x00, 0x00, 0x00, 0x00,
    0x00, 0x00, 0x00, 0x00, 0x00, 0x00, 0x00, 0x00, 0x00, 0x00, 0x00, 0x00,
    0x00, 0x00, 0x00, 0x00, 0x00, 0x00, 0x00, 0x00, 0x00, 0x00, 0x00, 0x00,
    0x00, 0x00, 0x00, 0x00, 0x00, 0x00, 0x00, 0x00, 0x00, 0x00, 0x00, 0x00,
    0x00, 0x00, 0x00, 0x00, 0x00, 0x00, 0x00, 0x00, 0x00, 0x00, 0x00, 0x00,
    0x00, 0x00, 0x00, 0x00, 0x00, 0x00, 0x00, 0x00, 0x00, 0x00, 0x00, 0x00,
    0x00, 0x00, 0x00, 0x00, 0x00, 0x00, 0x00, 0x00, 0x00, 0x00, 0x00, 0x00,
    0x00, 0x00, 0x00, 0x00, 0x00, 0x00, 0x00, 0x00, 0x00, 0x00, 0x00, 0x00,
    0x00, 0x00, 0x00, 0x00, 0x00, 0x00, 0x00, 0x00, 0x00, 0x00, 0x00, 0x00,
    0x00, 0x00, 0x00, 0x00, 0x00, 0x00, 0x00, 0x00, 0x00, 0x00, 0x00, 0x00,
    0x00, 0x00, 0x00, 0x00, 0x00, 0x00, 0x00, 0x00, 0x00, 0x00, 0x00, 0x00,
    0x00, 0x00, 0x00, 0x00, 0x00, 0x00, 0x00, 0x00, 0x00, 0x00, 0x00, 0x00,
    0x00, 0x00, 0x00, 0x00, 0x00, 0x00, 0x00, 0x00, 0x00, 0x00, 0x00, 0x00,
    0x00, 0x00, 0x00, 0x00, 0x00, 0x00, 0x00, 0x00, 0x00, 0x00, 0x00, 0x00,
    0x00, 0x00, 0x00, 0x00, 0x00, 0x00, 0x00, 0x00, 0x00, 0x00, 0x00, 0x00,
    0x00, 0x00, 0x00, 0x00, 0x00, 0x00, 0x00, 0x00, 0x00, 0x00, 0x00, 0x00,
    0x00, 0x00, 0x00, 0x00, 0x00, 0x00, 0x00, 0x00, 0x00, 0x00, 0x00, 0x00,
    0x00, 0x00, 0x00, 0x00, 0x00, 0x00, 0x00, 0x00, 0x00, 0x00, 0x00, 0x00,
    0x00, 0x00, 0x00, 0x00, 0x00, 0x00, 0x00, 0x00, 0x20, 0x00, 0x00, 0x00,
    0xff, 0x1c, 0x73, 0x3a, 0x90, 0x6e, 0x7f, 0x3a, 0x16, 0xe3, 0xca, 0x3a,
    0xa6, 0xae, 0xfc, 0x3a, 0x0a, 0x0b, 0xf1, 0x3a, 0xbc, 0xad, 0x0c, 0x3b,
    0xf8, 0xd9, 0x79, 0x3a, 0x6c, 0xfc, 0xb0, 0x3a, 0x1d, 0x72, 0x8e, 0x3a,
    0x25, 0xd6, 0xf7, 0x3a, 0x4d, 0x2d, 0x4d, 0x3b, 0x85, 0xe0, 0xba, 0x3a,
    0xb1, 0xdc, 0xab, 0x3a, 0x29, 0x40, 0x5d, 0x3a, 0x51, 0xf9, 0x0a, 0x3a,
    0x20, 0x6f, 0x55, 0x3a, 0x72, 0xa2, 0x8a, 0x3a, 0x68, 0xd4, 0xbc, 0x3a,
    0x8c, 0xeb, 0xa4, 0x3a, 0x2c, 0x6a, 0xb2, 0x3a, 0xab, 0x06, 0x81, 0x3a,
    0x22, 0x88, 0xad, 0x3a, 0xeb, 0xc0, 0xbb, 0x3a, 0x03, 0xad, 0xe5, 0x3a,
    0x11, 0x6d, 0x2a, 0x3b, 0x98, 0x89, 0xf1, 0x3a, 0xf6, 0xb8, 0xc2, 0x3a,
    0x24, 0xb3, 0x19, 0x3a, 0xcc, 0x7d, 0x19, 0x3b, 0x4c, 0x9c, 0x8e, 0x3a,
    0xd2, 0x5b, 0xd3, 0x3a, 0xb3, 0x07, 0x9d, 0x3a, 0x12, 0x00, 0x00, 0x00,
    0x74, 0x66, 0x6c, 0x2e, 0x70, 0x73, 0x65, 0x75, 0x64, 0x6f, 0x5f, 0x71,
    0x63, 0x6f, 0x6e, 0x73, 0x74, 0x35, 0x00, 0x00, 0x02, 0x00, 0x00, 0x00,
    0x20, 0x00, 0x00, 0x00, 0x4c, 0x00, 0x00, 0x00, 0xa6, 0xfb, 0xff, 0xff,
    0x00, 0x00, 0x00, 0x01, 0x14, 0x00, 0x00, 0x00, 0xa4, 0x01, 0x00, 0x00,
    0x06, 0x00, 0x00, 0x00, 0x00, 0x00, 0x00, 0x02, 0xb0, 0x01, 0x00, 0x00,
    0x0c, 0xfb, 0xff, 0xff, 0x08, 0x00, 0x00, 0x00, 0x08, 0x01, 0x00, 0x00,
    0x20, 0x00, 0x00, 0x00, 0x00, 0x00, 0x00, 0x00, 0x00, 0x00, 0x00, 0x00,
    0x00, 0x00, 0x00, 0x00, 0x00, 0x00, 0x00, 0x00, 0x00, 0x00, 0x00, 0x00,
    0x00, 0x00, 0x00, 0x00, 0x00, 0x00, 0x00, 0x00, 0x00, 0x00, 0x00, 0x00,
    0x00, 0x00, 0x00, 0x00, 0x00, 0x00, 0x00, 0x00, 0x00, 0x00, 0x00, 0x00,
    0x00, 0x00, 0x00, 0x00, 0x00, 0x00, 0x00, 0x00, 0x00, 0x00, 0x00, 0x00,
    0x00, 0x00, 0x00, 0x00, 0x00, 0x00, 0x00, 0x00, 0x00, 0x00, 0x00, 0x00,
    0x00, 0x00, 0x00, 0x00, 0x00, 0x00, 0x00, 0x00, 0x00, 0x00, 0x00, 0x00,
    0x00, 0x00, 0x00, 0x00, 0x00, 0x00, 0x00, 0x00, 0x00, 0x00, 0x00, 0x00,
    0x00, 0x00, 0x00, 0x00, 0x00, 0x00, 0x00, 0x00, 0x00, 0x00, 0x00, 0x00,
    0x00, 0x00, 0x00, 0x00, 0x00, 0x00, 0x00, 0x00, 0x00, 0x00, 0x00, 0x00,
    0x00, 0x00, 0x00, 0x00, 0x00, 0x00, 0x00, 0x00, 0x00, 0x00, 0x00, 0x00,
    0x00, 0x00, 0x00, 0x00, 0x00, 0x00, 0x00, 0x00, 0x00, 0x00, 0x00, 0x00,
    0x00, 0x00, 0x00, 0x00, 0x00, 0x00, 0x00, 0x00, 0x00, 0x00, 0x00, 0x00,
    0x00, 0x00, 0x00, 0x00, 0x00, 0x00, 0x00, 0x00, 0x00, 0x00, 0x00, 0x00,
    0x00, 0x00, 0x00, 0x00, 0x00, 0x00, 0x00, 0x00, 0x00, 0x00, 0x00, 0x00,
    0x00, 0x00, 0x00, 0x00, 0x00, 0x00, 0x00, 0x00, 0x00, 0x00, 0x00, 0x00,
    0x00, 0x00, 0x00, 0x00, 0x00, 0x00, 0x00, 0x00, 0x00, 0x00, 0x00, 0x00,
    0x00, 0x00, 0x00, 0x00, 0x00, 0x00, 0x00, 0x00, 0x00, 0x00, 0x00, 0x00,
    0x00, 0x00, 0x00, 0x00, 0x00, 0x00, 0x00, 0x00, 0x00, 0x00, 0x00, 0x00,
    0x00, 0x00, 0x00, 0x00, 0x00, 0x00, 0x00, 0x00, 0x00, 0x00, 0x00, 0x00,
    0x00, 0x00, 0x00, 0x00, 0x00, 0x00, 0x00, 0x00, 0x00, 0x00, 0x00, 0x00,
    0x00, 0x00, 0x00, 0x00, 0x00, 0x00, 0x00, 0x00, 0x20, 0x00, 0x00, 0x00,
    0x8e, 0x09, 0x1e, 0x38, 0x8d, 0x0b, 0x26, 0x38, 0x55, 0xe3, 0x83, 0x38,
    0xf8, 0x41, 0xa4, 0x38, 0x0e, 0xb1, 0x9c, 0x38, 0xea, 0xe5, 0xb6, 0x38,
    0xe2, 0x6a, 0x22, 0x38, 0x0e, 0x1a, 0x66, 0x38, 0x0f, 0x32, 0x39, 0x38,
    0x92, 0x1b, 0xa1, 0x38, 0x68, 0x60, 0x05, 0x39, 0x11, 0xf6, 0x72, 0x38,
    0xa9, 0x70, 0x5f, 0x38, 0x4c, 0xd3, 0x0f, 0x38, 0x86, 0xae, 0xb4, 0x37,
    0x83, 0xbe, 0x0a, 0x38, 0x94, 0x3d, 0x34, 0x38, 0xfa, 0x7f, 0x75, 0x38,
    0x2c, 0x6a, 0x56, 0x38, 0x92, 0xf5, 0x67, 0x38, 0x97, 0xbf, 0x27, 0x38,
    0x61, 0x9c, 0x61, 0x38, 0xd0, 0x19, 0x74, 0x38, 0x5f, 0x4d, 0x95, 0x38,
    0xb4, 0x92, 0xdd, 0x38, 0x52, 0x03, 0x9d, 0x38, 0x45, 0x29, 0x7d, 0x38,
    0xb8, 0xd3, 0xc7, 0x37, 0x5e, 0x8e, 0xc7, 0x38, 0xe7, 0x68, 0x39, 0x38,
    0x22, 0x65, 0x89, 0x38, 0x24, 0x28, 0x4c, 0x38, 0x12, 0x00, 0x00, 0x00,
    0x74, 0x66, 0x6c, 0x2e, 0x70, 0x73, 0x65, 0x75, 0x64, 0x6f, 0x5f, 0x71,
    0x63, 0x6f, 0x6e, 0x73, 0x74, 0x34, 0x00, 0x00, 0x01, 0x00, 0x00, 0x00,
    0x20, 0x00, 0x00, 0x00, 0x76, 0xfd, 0xff, 0xff, 0x00, 0x00, 0x00, 0x01,
    0x14, 0x00, 0x00, 0x00, 0xe8, 0x00, 0x00, 0x00, 0x05, 0x00, 0x00, 0x00,
    0x00, 0x00, 0x00, 0x09, 0xf4, 0x00, 0x00, 0x00, 0xdc, 0xfc, 0xff, 0xff,
    0x08, 0x00, 0x00, 0x00, 0x8c, 0x00, 0x00, 0x00, 0x10, 0x00, 0x00, 0x00,
    0x00, 0x00, 0x00, 0x00, 0x00, 0x00, 0x00, 0x00, 0x00, 0x00, 0x00, 0x00,
    0x00, 0x00, 0x00, 0x00, 0x00, 0x00, 0x00, 0x00, 0x00, 0x00, 0x00, 0x00,
    0x00, 0x00, 0x00, 0x00, 0x00, 0x00, 0x00, 0x00, 0x00, 0x00, 0x00, 0x00,
    0x00, 0x00, 0x00, 0x00, 0x00, 0x00, 0x00, 0x00, 0x00, 0x00, 0x00, 0x00,
    0x00, 0x00, 0x00, 0x00, 0x00, 0x00, 0x00, 0x00, 0x00, 0x00, 0x00, 0x00,
    0x00, 0x00, 0x00, 0x00, 0x00, 0x00, 0x00, 0x00, 0x00, 0x00, 0x00, 0x00,
    0x00, 0x00, 0x00, 0x00, 0x00, 0x00, 0x00, 0x00, 0x00, 0x00, 0x00, 0x00,
    0x00, 0x00, 0x00, 0x00, 0x00, 0x00, 0x00, 0x00, 0x00, 0x00, 0x00, 0x00,
    0x00, 0x00, 0x00, 0x00, 0x00, 0x00, 0x00, 0x00, 0x00, 0x00, 0x00, 0x00,
    0x00, 0x00, 0x00, 0x00, 0x00, 0x00, 0x00, 0x00, 0x00, 0x00, 0x00, 0x00,
    0x00, 0x00, 0x00, 0x00, 0x00, 0x00, 0x00, 0x00, 0x00, 0x00, 0x00, 0x00,
    0x10, 0x00, 0x00, 0x00, 0x65, 0x6e, 0x0c, 0x3b, 0x91, 0xfa, 0xcf, 0x3a,
    0xbe, 0x5b, 0xe7, 0x3a, 0xd9, 0x40, 0x49, 0x3b, 0xc3, 0x2e, 0xa9, 0x3a,
    0x32, 0x3e, 0x34, 0x3b, 0xe9, 0xb7, 0xad, 0x3a, 0xa9, 0xfb, 0x98, 0x3a,
    0xdb, 0x12, 0x19, 0x3b, 0x0d, 0x52, 0xfa, 0x3a, 0x8b, 0x0f, 0x19, 0x3b,
    0x50, 0x64, 0xf1, 0x3a, 0xbb, 0x8c, 0xa4, 0x3a, 0xed, 0x5a, 0x77, 0x3a,
    0x04, 0x57, 0xfc, 0x3a, 0xad, 0xbc, 0xaa, 0x3a, 0x12, 0x00, 0x00, 0x00,
    0x74, 0x66, 0x6c, 0x2e, 0x70, 0x73, 0x65, 0x75, 0x64, 0x6f, 0x5f, 0x71,
    0x63, 0x6f, 0x6e, 0x73, 0x74, 0x33, 0x00, 0x00, 0x02, 0x00, 0x00, 0x00,
    0x10, 0x00, 0x00, 0x00, 0x20, 0x00, 0x00, 0x00, 0x8e, 0xfe, 0xff, 0xff,
    0x00, 0x00, 0x00, 0x01, 0x14, 0x00, 0x00, 0x00, 0xe4, 0x00, 0x00, 0x00,
    0x04, 0x00, 0x00, 0x00, 0x00, 0x00, 0x00, 0x02, 0xf0, 0x00, 0x00, 0x00,
    0xf4, 0xfd, 0xff, 0xff, 0x08, 0x00, 0x00, 0x00, 0x88, 0x00, 0x00, 0x00,
    0x10, 0x00, 0x00, 0x00, 0x00, 0x00, 0x00, 0x00, 0x00, 0x00, 0x00, 0x00,
    0x00, 0x00, 0x00, 0x00, 0x00, 0x00, 0x00, 0x00, 0x00, 0x00, 0x00, 0x00,
    0x00, 0x00, 0x00, 0x00, 0x00, 0x00, 0x00, 0x00, 0x00, 0x00, 0x00, 0x00,
    0x00, 0x00, 0x00, 0x00, 0x00, 0x00, 0x00, 0x00, 0x00, 0x00, 0x00, 0x00,
    0x00, 0x00, 0x00, 0x00, 0x00, 0x00, 0x00, 0x00, 0x00, 0x00, 0x00, 0x00,
    0x00, 0x00, 0x00, 0x00, 0x00, 0x00, 0x00, 0x00, 0x00, 0x00, 0x00, 0x00,
    0x00, 0x00, 0x00, 0x00, 0x00, 0x00, 0x00, 0x00, 0x00, 0x00, 0x00, 0x00,
    0x00, 0x00, 0x00, 0x00, 0x00, 0x00, 0x00, 0x00, 0x00, 0x00, 0x00, 0x00,
    0x00, 0x00, 0x00, 0x00, 0x00, 0x00, 0x00, 0x00, 0x00, 0x00, 0x00, 0x00,
    0x00, 0x00, 0x00, 0x00, 0x00, 0x00, 0x00, 0x00, 0x00, 0x00, 0x00, 0x00,
    0x00, 0x00, 0x00, 0x00, 0x00, 0x00, 0x00, 0x00, 0x00, 0x00, 0x00, 0x00,
    0x10, 0x00, 0x00, 0x00, 0xe2, 0xba, 0x1c, 0x38, 0x07, 0x1e, 0xe8, 0x37,
    0xee, 0x1a, 0x01, 0x38, 0x7b, 0x9c, 0x60, 0x38, 0x83, 0xd1, 0xbc, 0x37,
    0x92, 0x29, 0x49, 0x38, 0x6d, 0xe1, 0xc1, 0x37, 0x17, 0xbd, 0xaa, 0x37,
    0xfa, 0xd6, 0x2a, 0x38, 0xc9, 0xaf, 0x0b, 0x38, 0x47, 0xd3, 0x2a, 0x38,
    0x45, 0xb4, 0x06, 0x38, 0xd4, 0xa5, 0xb7, 0x37, 0x2b, 0x08, 0x8a, 0x37,
    0x44, 0xd0, 0x0c, 0x38, 0x9c, 0x8d, 0xbe, 0x37, 0x12, 0x00, 0x00, 0x00,
    0x74, 0x66, 0x6c, 0x2e, 0x70, 0x73, 0x65, 0x75, 0x64, 0x6f, 0x5f, 0x71,
    0x63, 0x6f, 0x6e, 0x73, 0x74, 0x32, 0x00, 0x00, 0x01, 0x00, 0x00, 0x00,
    0x10, 0x00, 0x00, 0x00, 0x9e, 0xff, 0xff, 0xff, 0x00, 0x00, 0x00, 0x01,
    0x14, 0x00, 0x00, 0x00, 0x30, 0x00, 0x00, 0x00, 0x03, 0x00, 0x00, 0x00,
    0x00, 0x00, 0x00, 0x09, 0x3c, 0x00, 0x00, 0x00, 0x04, 0xff, 0xff, 0xff,
    0x08, 0x00, 0x00, 0x00, 0x10, 0x00, 0x00, 0x00, 0x01, 0x00, 0x00, 0x00,
    0x00, 0x00, 0x00, 0x00, 0x00, 0x00, 0x00, 0x00, 0x01, 0x00, 0x00, 0x00,
    0xb9, 0x5e, 0xc1, 0x3b, 0x12, 0x00, 0x00, 0x00, 0x74, 0x66, 0x6c, 0x2e,
    0x70, 0x73, 0x65, 0x75, 0x64, 0x6f, 0x5f, 0x71, 0x63, 0x6f, 0x6e, 0x73,
    0x74, 0x31, 0x00, 0x00, 0x02, 0x00, 0x00, 0x00, 0x01, 0x00, 0x00, 0x00,
    0x10, 0x00, 0x00, 0x00, 0x00, 0x00, 0x16, 0x00, 0x1c, 0x00, 0x18, 0x00,
    0x17, 0x00, 0x10, 0x00, 0x0c, 0x00, 0x08, 0x00, 0x00, 0x00, 0x00, 0x00,
    0x00, 0x00, 0x07, 0x00, 0x16, 0x00, 0x00, 0x00, 0x00, 0x00, 0x00, 0x01,
    0x14, 0x00, 0x00, 0x00, 0x30, 0x00, 0x00, 0x00, 0x02, 0x00, 0x00, 0x00,
    0x00, 0x00, 0x00, 0x02, 0x3c, 0x00, 0x00, 0x00, 0x7c, 0xff, 0xff, 0xff,
    0x08, 0x00, 0x00, 0x00, 0x10, 0x00, 0x00, 0x00, 0x01, 0x00, 0x00, 0x00,
    0x00, 0x00, 0x00, 0x00, 0x00, 0x00, 0x00, 0x00, 0x01, 0x00, 0x00, 0x00,
    0x39, 0x62, 0xa0, 0x38, 0x11, 0x00, 0x00, 0x00, 0x74, 0x66, 0x6c, 0x2e,
    0x70, 0x73, 0x65, 0x75, 0x64, 0x6f, 0x5f, 0x71, 0x63, 0x6f, 0x6e, 0x73,
    0x74, 0x00, 0x00, 0x00, 0x01, 0x00, 0x00, 0x00, 0x01, 0x00, 0x00, 0x00,
    0x00, 0x00, 0x16, 0x00, 0x20, 0x00, 0x1c, 0x00, 0x1b, 0x00, 0x14, 0x00,
    0x10, 0x00, 0x0c, 0x00, 0x00, 0x00, 0x00, 0x00, 0x08, 0x00, 0x07, 0x00,
    0x16, 0x00, 0x00, 0x00, 0x00, 0x00, 0x00, 0x01, 0x18, 0x00, 0x00, 0x00,
    0x2c, 0x00, 0x00, 0x00, 0x48, 0x00, 0x00, 0x00, 0x01, 0x00, 0x00, 0x00,
    0x00, 0x00, 0x00, 0x09, 0x60, 0x00, 0x00, 0x00, 0x02, 0x00, 0x00, 0x00,
    0xff, 0xff, 0xff, 0xff, 0x4c, 0x00, 0x00, 0x00, 0x0c, 0x00, 0x0c, 0x00,
    0x00, 0x00, 0x00, 0x00, 0x08, 0x00, 0x04, 0x00, 0x0c, 0x00, 0x00, 0x00,
    0x08, 0x00, 0x00, 0x00, 0x10, 0x00, 0x00, 0x00, 0x01, 0x00, 0x00, 0x00,
    0xef, 0xff, 0xff, 0xff, 0xff, 0xff, 0xff, 0xff, 0x01, 0x00, 0x00, 0x00,
    0x18, 0x6a, 0x26, 0x3d, 0x1d, 0x00, 0x00, 0x00, 0x73, 0x65, 0x72, 0x76,
    0x69, 0x6e, 0x67, 0x5f, 0x64, 0x65, 0x66, 0x61, 0x75, 0x6c, 0x74, 0x5f,
    0x69, 0x6e, 0x70, 0x75, 0x74, 0x5f, 0x6c, 0x61, 0x79, 0x65, 0x72, 0x3a,
    0x30, 0x00, 0x00, 0x00, 0x02, 0x00, 0x00, 0x00, 0x01, 0x00, 0x00, 0x00,
    0x4c, 0x00, 0x00, 0x00, 0x02, 0x00, 0x00, 0x00, 0x24, 0x00, 0x00, 0x00,
    0x04, 0x00, 0x00, 0x00, 0xf0, 0xff, 0xff, 0xff, 0x0e, 0x00, 0x00, 0x00,
    0x02, 0x00, 0x00, 0x00, 0x00, 0x00, 0x00, 0x0e, 0x0c, 0x00, 0x10, 0x00,
    0x0f, 0x00, 0x00, 0x00, 0x08, 0x00, 0x04, 0x00, 0x0c, 0x00, 0x00, 0x00,
    0x09, 0x00, 0x00, 0x00, 0x04, 0x00, 0x00, 0x00, 0x00, 0x00, 0x00, 0x09
        };
        const unsigned int model_tflite_len = 6672;
        #endif
        